[PAD]
[UNK]
[BOS]
[EOS]
[DATE]
<EMOJI>
!
\
"
#
$
%
&
'
(
)
*
+
,
-
.
/
:
;
<
=
>
?
@
[
]
^
_
`
{
|
}
~
…
</w>
া
🤑
d
é
Ó
k
L
ầ
ς
·
6
C
B
ɪ
ǒ
ū
🥂
‹
ễ
σ
о
�
r
‏
h
’
ž
G
­
ğ
3
б
🤗
ি
μ
τ
ů
j
V
f
e
ό
K
﻿
গ
2
Κ
🤼
ł
ɛ
ş
ã
т
ê
v
°
ল
ī
🥗
র
κ
ñ
O
J
ș
ρ
―
â
ć
î
Ş
Ö
Ñ
ò
́
‚
M
ʼ
æ
ā
W
ú
û
“
á
×
ভ
0
•
¿
Ç
ė
T
b
£
Å
å
ট
Г
t
n
ó
X
ô
Y
ạ
g
δ
1
আ
ì
U
5
ù
ো
p
ಠ
ō
λ
è
ˈ
Ü
ι
à
H
‐
ά
u
Č
Ł

–
Z
I
🤔
ᅢ
ω
i
≠
к
o
s
x
🤘
🦄
─
l
а
ь
y
Έ
α
A
À
🤢
S
7
ö
স
্
É
ấ
ˌ
¬
‘
€

Q
ï
ë
Î
ń
я
c
г
ᆱ
ώ
ē
¢
Á

у
m
ᄅ
ᄡ
ο
«
E
”
​
⁄
ç
w
ί
с
ü
í
ツ
м
ű
œ
ε
‎
‪
ø
ə
л
R
ই
ś
️
4
Ø
̄
z
D
ä
©
8
ύ
ξ
ʻ
ệ
—
е
¡
υ
η
ν
‍
a
N
̊
ː
‒
®
±
P
γ
9
′
q
š
č
F
e</w>
s</w>
t</w>
n</w>
in
he
d</w>
th
er
r</w>
y</w>
an
re
on
es
or
at
ng
en
o</w>
ou
.</w>
ar
nd
g</w>
st
te
ti
,</w>
al
to
it
is
ea
ed
'</w>
l</w>
ve
nt
ha
le
a</w>
me
f</w>
ri
ll
as
ne
se
li
Th
hi
ur
ic
h</w>
de
om
ro
ra
of
io
el
ce
il
ho
ut
ee
rs
co
ta
et
us
ns
ca
si
ma
la
ac
ot
ch
ow
ay
be
m</w>
ge
pe
ec
ss
ly
ie
k</w>
id
rt
ts
fo
ol
w</w>
di
ke
un
ing</w>
the</w>
er</w>
to</w>
and</w>
of</w>
on</w>
is</w>
in</w>
The</w>
ve</w>
p</w>
al</w>
th</w>
at</w>
"</w>
ly</w>
le</w>
ver
an</w>
you
or</w>
ou</w>
tha
ay</w>
the
ter
mp
as</w>
:</w>
ed</w>
ith
I</w>
es</w>
ce</w>
our</w>
ts</w>
re</w>
ent</w>
for</w>
To</w>
it</w>
gh
ru
lo
oo
ion</w>
os
um
ig
ld</w>
out</w>
A</w>
ab
are</w>
ke</w>
ers</w>
se</w>
om</w>
op
wa
me</w>
wi
her</w>
am
ow</w>
ot</w>
nd</w>
In</w>
You
st</w>
pl
ut</w>
?</w>
Fo
ch</w>
An
ai
ate</w>
hat</w>
ge</w>
her
ov
rom
all
Re
ore</w>
ent
ir
up
pp
mo
bl
Tr
men
ag
be</w>
St
iv
po
that</w>
you</w>
ter</w>
with</w>
ation</w>
rom</w>
(</w>
ght</w>
ons</w>
Of</w>
ex
con
ill</w>
)</w>
ity</w>
est</w>
one</w>
com
ad
tion</w>
ing
For</w>
ati
ome</w>
ds</w>
Tru
res
all</w>
Ne
ff
ci
And</w>
ted</w>
ould</w>
have</w>
S</w>
ear
ul
king</w>
igh
we</w>
ess</w>
It</w>
and
mp</w>
rum
The
ion
ally</w>
was</w>
wor
ays</w>
Is</w>
ome
for
ks</w>
ver</w>
pre
hen</w>
You</w>
pro
ic</w>
Wi
not</w>
he</w>
can</w>
fr
your</w>
ck</w>
ir</w>
ant</w>
0</w>
day</w>
ost</w>
qu
my</w>
ding</w>
-</w>
per
On</w>
De
fu
ust</w>
this</w>
cou
sp
ill
ith</w>
ll</w>
su
Wh
ew</w>
ment</w>
gs</w>
de</w>
ho</w>
--
ear</w>
ni
ud
Trump</w>
from</w>
With</w>
ting</w>
Ch
ure</w>
ine</w>
This</w>
een</w>
--</w>
about</w>
more</w>
ies</w>
mer
has</w>
por
ans</w>
rou
Li
by</w>
Con
Am
We</w>
wee
ople</w>
but</w>
ry</w>
et</w>
now</w>
up</w>
are
New</w>
ere</w>
fter</w>
us</w>
ings</w>
Be
ast</w>
fe</w>
ad</w>
how</w>
ves</w>
ary</w>
tic
thing</w>
fi
20
any</w>
par
gh</w>
so</w>
ous</w>
their</w>
ence</w>
ist
Your</w>
How</w>
sid
ub
ite</w>
ight</w>
mes</w>
OT
sed</w>
own</w>
eric
TO
will</w>
led</w>
HO
’s</w>
red</w>
min
uc
What</w>
PH
pla
!</w>
Ab
Wor
do
other</w>
In
they</w>
time</w>
who</w>
age</w>
lin
ms</w>
ard</w>
ps</w>
ood</w>
Pro
Ma
son</w>
his</w>
au
what</w>
Mar
der</w>
Amer
meric
OTO
PHOT
its</w>
ong</w>
lic
ar</w>
our
ice</w>
x</w>
way</w>
cre
onal</w>
av
From</w>
lea
ning</w>
OS</w>
ia</w>
Po
use</w>
bo
ven</w>
les</w>
ws</w>
ran
vi
sel
sh
aid</w>
Ha
Ex
5</w>
ob
en</w>
che
cho
rat
201
ance</w>
ld
At</w>
people</w>
tra
ist</w>
ess
do</w>
Pre
But</w>
end</w>
like</w>
ated</w>
here</w>
when</w>
ked</w>
ris
As</w>
tions</w>
very</w>
just</w>
gu
ack</w>
cl
iz
That</w>
ty</w>
Don
rst</w>
chi
mb
onal
Ac
ble</w>
rea
ful</w>
Sp
ating</w>
enti
new</w>
ust
ap
ces</w>
ali
als</w>
dis
Are</w>
been</w>
get</w>
ress</w>
go
i</w>
fin
Com
ton</w>
man</w>
O</w>
ory</w>
ears</w>
und
Americ
PHOTO
OTOS</w>
ses</w>
ors</w>
able</w>
than</w>
id</w>
ily</w>
About</w>
said</w>
On
most</w>
ose</w>
loo
rec
ents</w>
lec
mar
art</w>
To
omen</w>
oc
ald</w>
ations</w>
Ti
U</w>
im
whi
ain
2</w>
Be</w>
ound</w>
Donal
ook</w>
After</w>
Fi
some</w>
mon
imp
kes</w>
Par
If</w>
Why</w>
ded</w>
ying</w>
ates</w>
Sh
Do
ink</w>
When</w>
ame</w>
res</w>
there</w>
gi
ties</w>
Lo
mer</w>
He
ct</w>
1</w>
ne</w>
hel
Day</w>
over</w>
fe
Al
pec
gre
ass
life</w>
Int
some
My</w>
Ad
ned</w>
3</w>
tle</w>
ga
Co
sident</w>
ved</w>
ree</w>
Ta
ner</w>
had</w>
sho
into</w>
He</w>
ide</w>
Jo
ving</w>
ren</w>
alth</w>
Ob
Chi
dy</w>
ast
if</w>
Res
PHOTOS</w>
Donald</w>
were</w>
no</w>
shi
pub
ids</w>
ell</w>
come</w>
Hu
Not</w>
Sho
Tra
would</w>
Bo
old</w>
Ar
tive</w>
des
Tw
4</w>
make</w>
them</w>
cause</w>
tu
br
we
ser
comp
By</w>
many</w>
Can</w>
get
ID
self</w>
cial</w>
know</w>
ouse</w>
wo</w>
More</w>
am</w>
very
anc
arent
don</w>
app
tw
Sup
inter
Se
uch</w>
Dis
6</w>
”</w>
ie</w>
ges</w>
ace</w>
row
she</w>
ead</w>
ough</w>
gen
end
gg
Per
off
ness</w>
fri
ind</w>
first</w>
ars</w>
med</w>
ten
gra
7</w>
chan
after</w>
ise</w>
uff
ced</w>
vers
ets</w>
VI
years</w>
rac
ns</w>
no
bet
ol</w>
La
Car
bu
year</w>
ell
ort
Here</w>
world</w>
Ro
ual</w>
est
go</w>
Le
His</w>
Qu
Ho
VID
ft</w>
port</w>
EO</w>
count
il</w>
ways</w>
Will</w>
One</w>
There</w>
ins</w>
ldren</w>
P</w>
ely</w>
Wee
ical</w>
ged</w>
pe</w>
fore</w>
Pe
ue</w>
cor
ide
10</w>
00</w>
tor</w>
uring</w>
ama</w>
They</w>
cont
less</w>
Gu
may</w>
Go
tes</w>
Mo
ff</w>
ational</w>
these</w>
ped</w>
ste
tri
Un
fam
Who</w>
ther</w>
pri
Fa
od</w>
ens</w>
Di
el</w>
tur
ect</w>
amily</w>
work</w>
could</w>
ants</w>
ign</w>
Up</w>
Bla
being</w>
Out</w>
C</w>
An</w>
rough</w>
Ste
back</w>
ig</w>
hers</w>
IDE
lack</w>
Her</w>
Mon
ur</w>
only</w>
ev
so
ain</w>
Do</w>
sur
Sta
Cou
cu
comm
Pla
even</w>
want</w>
ish</w>
cri
duc
eas
Col
eg
All</w>
sts</w>
yle</w>
alle
wh
which</w>
Says</w>
sup
ters</w>
col
ashi
ittle</w>
where</w>
week</w>
also</w>
ten</w>
ls</w>
World</w>
Have</w>
ous
need</w>
VIDEO</w>
No</w>
American</w>
ici
rin
Che
tre
ound
Gre
America</w>
So</w>
Over</w>
Best</w>
cer
ind
much</w>
take</w>
think</w>
ative</w>
right</w>
rist
love</w>
war
der
For
say</w>
Women</w>
ger</w>
ffer
ey</w>
mat
moc
ainst</w>
med
Lea
8</w>
Chri
down</w>
two</w>
chool</w>
Repub
Obama</w>
og
ian</w>
ater</w>
Fin
public
Just</w>
good</w>
At
mis
ph
book</w>
Rec
ick</w>
vis
House</w>
Ca
ber
lit
People</w>
ince</w>
lie
ys</w>
see
ney</w>
vie
pon
see</w>
Is
nt</w>
9</w>
Whi
Sec
Make</w>
ang
esti
atch</w>
leg
Huff
Me
should</w>
those</w>
Post</w>
edding</w>
ality</w>
oman</w>
vel</w>
cess</w>
any
ling</w>
ever</w>
z</w>
read
Gi
thy</w>
ker</w>
alth
iving</w>
ack
sc
poli
Har
Clin
Our</w>
ship</w>
She</w>
ean</w>
off</w>
lan
ale</w>
kers</w>
Get</w>
Democ
land</w>
Like</w>
tal
im</w>
stud
tru
because</w>
Off
Yor
itter</w>
Med
happ
hoto
cal
help</w>
Poli
te</w>
ase</w>
line</w>
last</w>
ili
women</w>
Life</w>
arents</w>
L</w>
Inter
Most</w>
exper
Wed
going</w>
Pl
These</w>
’t</w>
mate</w>
lee
tly</w>
ower</w>
lice</w>
each</w>
still</w>
Uni
ments</w>
uti
ann
made</w>
President</w>
iness</w>
fee
jo
through</w>
ping</w>
kn
never</w>
inv
GO
b</w>
T</w>
every
mber</w>
eel</w>
things</w>
udy</w>
ork</w>
Now</w>
tic</w>
Fri
