[PAD]
[UNK]
[BOS]
[EOS]
!
\
"
#
$
%
&
'
(
)
*
+
,
-
.
/
:
;
<
=
>
?
@
[
]
^
_
`
{
|
}
~
…
</w>
😮
x
💅
💼
¾
г
🚨
s
É
💡
’
🏫
″
í
ï
🐔
ː
к
📸
š
🇸
❄
Y
Ñ
🐲
😇
μ
গ
ツ
®
🙈
﻿
J
ê
👠
n
😘
⚾
o
🎈
👯
ə
🍒
с
🐶
😎
λ
U
🐷
ﾩ
🤑
r
🐎
l
💋
🎸
🍎
🙄
🌮
👑
�
I
5
💩
🇨
ğ
‍
🎮
💃
ń
ύ
k
0
3
👻
🚀
Ç
À
¬
«
e
🍸
C
‘
ē
😜
ˈ
🍖
¯
👖
ė
ο
💻
👅
ো
✂
😍
😂
👀
🏃
ł
⚡
δ
v
♬
🎆
📚
κ
ä
ø
ς
̀
ˌ
å
😰
🌤
💗
🐘
🕵
💯
T
😶
📷
👡
্
E
🚬
♦
±
🍁
D
🐍
🍍
ￃ
я
ā
ɪ
û
á
💊
🔋
🇷
🙊
🙀
😢
🛀
🌝
ʻ
💙
🍑
m
B
✌
👓
î
“
👊
🕺
🌘
💪
é
👰
е
🍞
☘
–
🌑
‏
🇬
😒
V
🇺
🐥
č
🌒
M
🎓
☕
ﬁ
N
ﾴ
🏈
ú
ল
🐱
🍓
♫
X
ầ
🐮
😳
🌞
😕
🍝
ü
🗣
🏅
🙏
€
à
🐊
ș
🍃
🍕
£
💫
d
у
α
A
2
7
Έ
🍰
б
🚂
🤼
☼
η
🍴
γ
‚
🌴
🐾
F
💍
Č
🎇
œ
🏰
P
🐝
л
ś
🌿
🔥
ǒ
ই
ű
ά
ô
🌎
H
―
💘
Κ
ó
✊
ξ
ί
ō
👭
​
🙆
о
Ø
😭
‐
♂
র
✨

z
©

🌔
🍻
👋
😃
ö
🙃
•
S
ñ
💛
🌗
g
4
🌓
j
˚
ɛ
👶
ī
🏼
ò
🌈
🐼
💁
🍽
👚
ι
💄
L
Ó
👩
🏾
σ
a
—
ấ
💖
t
‒
🍪
Г
─
আ
া
а
ì
💐
🎾
ć
i
W
ভ
👪
😑
🤗
🌳
f
ã
™
💉
🌖
✔
😴
O
º
🎅
🌕
Q
🇫
y
ﾫ
p
🇿
🦄
⛄
💦
☔
ë
👍
ʼ
🍹
‹
🚗
🍩
🎂
×
ώ
💸
🙂
9
☀
😀
📺
w
💧
🎵
ε
τ
🔑
c
ь
🍦
💇
🎉
🌦
স
✈
🙌
G
⛱
💀
☃
¢
Ü
👬
🍔
·
😔
Á
🇦
💞
≠
🍅
💥
🤘
ů
😬
Z
💚
🌊
💨
👼
😻
🇭
ό
ū
📱
Ş
ν
💰
🔪
¡
️
â
8
😡
🐋
💜
‎
ট
🐆
😉
🎁
K
🍆
🎤
☂
ù
😱
­
Å
🍜
🔍
➡
🔮
📝
q
½
🍂
🎊
Ł
🎄
°
ρ
❤
h
👏
🍟
🌍
′
😊
😈
ಠ
💕
🍗
1
Î
🍾
♥
🍫
👽
ž
🤢
🏽
🤔
ạ
т
υ
”
6
‪
¿

🙅
ি
😠
́
è
👹
b
🍌
💤
🥂
😞
🍷
🌷
😩
🥗
ệ
ç
🎭
🎃
ω
м
🎶
ễ
´
u
R
💔
🍋
æ
😐
Ö
ş
¹
[BOS]</w>
[EOS]</w>
[PAD]</w>
[UNK]</w>
e</w>
s</w>
t</w>
n</w>
in
he
d</w>
th
er
r</w>
y</w>
an
re
on
es
or
at
ng
en
o</w>
ou
.</w>
ar
nd
g</w>
st
te
ti
,</w>
al
to
it
is
ea
ed
'</w>
l</w>
ve
nt
ha
le
a</w>
me
f</w>
ri
ll
as
ne
se
li
Th
hi
ur
ic
h</w>
de
om
ro
ra
of
io
el
ce
il
ho
ut
ee
rs
co
ta
et
us
ns
ca
si
ma
la
ac
ot
ch
ow
ay
be
m</w>
ge
pe
ec
ss
ly
ie
k</w>
id
rt
ts
fo
ol
ing</w>
the</w>
er</w>
to</w>
and</w>
of</w>
on</w>
is</w>
in</w>
The</w>
ve</w>
p</w>
al</w>
th</w>
at</w>
"</w>
ly</w>
le</w>
ver
an</w>
ed</w>
you
es</w>
or</w>
ou</w>
tha
ay</w>
the
ter
mp
as</w>
:</w>
ith
I</w>
w</w>
ce</w>
our</w>
ts</w>
re</w>
ent</w>
for</w>
ru
it</w>
To</w>
gh
lo
oo
ion</w>
ig
os
um
ld</w>
out</w>
A</w>
ab
are</w>
ke</w>
ers</w>
se</w>
om</w>
op
wa
me</w>
wi
her</w>
am
ow</w>
nd</w>
ot</w>
In</w>
You
st</w>
pl
ut</w>
?</w>
Fo
ch</w>
An
ai
ate</w>
hat</w>
un
ge</w>
her
iv
ov
rom
all
Re
ore</w>
ent
ir
up
pp
mo
bl
Tr
men
ag
be</w>
that</w>
you</w>
ter</w>
with</w>
St
ation</w>
rom</w>
(</w>
ght</w>
ons</w>
Of</w>
ex
con
ill</w>
)</w>
ad
ity</w>
est</w>
one</w>
com
tion</w>
ing
For</w>
ati
ome</w>
ds</w>
Tru
res
all</w>
Ne
ff
ci
And</w>
ted</w>
ould</w>
di
have</w>
S</w>
ear
ul
king</w>
igh
we</w>
and
ess</w>
It</w>
mp</w>
rum
The
ion
ally</w>
was</w>
wor
ays</w>
Is</w>
ome
for
ks</w>
ver</w>
pre
hen</w>
You</w>
pro
ic</w>
Wi
not</w>
he</w>
can</w>
fr
your</w>
if
ck</w>
ir</w>
ant</w>
0</w>
day</w>
sp
ost</w>
qu
my</w>
ding</w>
fu
-</w>
per
On</w>
ud
De
ust</w>
this</w>
cou
ill
ith</w>
ll</w>
po
su
Wh
ew</w>
ment</w>
de</w>
gs</w>
Trump</w>
from</w>
With</w>
ear</w>
ting</w>
Ch
ure</w>
ine</w>
wh
This</w>
et</w>
een</w>
--</w>
about</w>
more</w>
ies</w>
mer
has</w>
por
ans</w>
rou
ight</w>
by</w>
Con
Am
We</w>
ni
wee
ople</w>
but</w>
ry</w>
now</w>
up</w>
are
en</w>
New</w>
ere</w>
fter</w>
us</w>
ings</w>
Be
ast</w>
ad</w>
how</w>
ves</w>
ary</w>
tic
thing</w>
20
any</w>
par
gh</w>
so</w>
ist
ous</w>
their</w>
fi
ence</w>
Your</w>
How</w>
lea
sid
ub
ite</w>
ia</w>
mes</w>
OT
sed</w>
own</w>
eric
TO
will</w>
led</w>
HO
’s</w>
red</w>
min
uc
What</w>
PH
pla
!</w>
Ab
Wor
do
In
ho</w>
other</w>
they</w>
time</w>
age</w>
lin
ms</w>
ard</w>
ps</w>
ood</w>
Pro
Ma
son</w>
his</w>
Amer
meric
OTO
PHOT
who</w>
what</w>
its</w>
ong</w>
lic
ar</w>
our
ice</w>
x</w>
Mar
way</w>
cre
au
onal</w>
av
From</w>
ning</w>
OS</w>
ld
Po
use</w>
bo
ven</w>
les</w>
ws</w>
ran
Ha
sel
sh
aid</w>
Ex
5</w>
der</w>
ob
che
cho
rat
201
ance</w>
At</w>
people</w>
tra
ist</w>
ess
do</w>
Pre
But</w>
end</w>
like</w>
ated</w>
here</w>
Li
when</w>
fe</w>
ked</w>
iz
ris
As</w>
tions</w>
vi
very</w>
just</w>
gu
ack</w>
rea
That</w>
ty</w>
Don
rst</w>
chi
mb
onal
Ac
ble</w>
ful</w>
Sp
ating</w>
enti
ust
new</w>
ap
ces</w>
als</w>
dis
Are</w>
been</w>
get</w>
ress</w>
go
cl
im
i</w>
fin
lif
und
Com
Americ
PHOTO
OTOS</w>
ton</w>
man</w>
ory</w>
ears</w>
id</w>
ses</w>
ors</w>
able</w>
than</w>
ily</w>
About</w>
said</w>
On
most</w>
ose</w>
loo
rec
ents</w>
lec
mar
art</w>
To
omen</w>
oc
ald</w>
ations</w>
U</w>
whi
ain
Ti
2</w>
Be</w>
ound</w>
Donal
ook</w>
After</w>
some</w>
year
mon
imp
kes</w>
Par
If</w>
Why</w>
ded</w>
ying</w>
ates</w>
Fi
Sh
Do
ink</w>
When</w>
ame</w>
res</w>
there</w>
O</w>
ties</w>
Lo
He
ne</w>
ct</w>
1</w>
hel
Day</w>
over</w>
pec
Al
gre
ass
life</w>
Int
some
Ad
My</w>
ned</w>
3</w>
tle</w>
ga
Co
mer</w>
sident</w>
ved</w>
ree</w>
Ta
ner</w>
had</w>
sho
into</w>
He</w>
ide</w>
Jo
if</w>
ey</w>
ren</w>
alth</w>
Ob
Chi
PHOTOS</w>
Donald</w>
dy</w>
ving</w>
no</w>
Res
were</w>
off
shi
pub
ids</w>
ell</w>
come</w>
Hu
Not</w>
Sho
Tra
would</w>
Bo
old</w>
Ar
tive</w>
des
fe
Tw
4</w>
ie</w>
make</w>
them</w>
gi
cause</w>
ser
comp
we
By</w>
br
many</w>
Can</w>
get
ID
self</w>
cial</w>
know</w>
ast
ouse</w>
wo</w>
More</w>
am</w>
very
anc
arent
don</w>
app
tw
Sup
inter
Se
end
uch</w>
Dis
tu
6</w>
”</w>
ges</w>
ace</w>
row
she</w>
ell
gg
ead</w>
ough</w>
La
est
Per
ness</w>
fri
gen
ind</w>
ns</w>
first</w>
ars</w>
med</w>
ten
gra
7</w>
chan
after</w>
ind
ise</w>
uff
ced</w>
vers
ets</w>
VI
years</w>
rac
no
bet
ol</w>
Car
year</w>
Here</w>
world</w>
Ro
bu
go</w>
Le
His</w>
Qu
Ho
il</w>
VID
port</w>
EO</w>
count
ways</w>
Will</w>
One</w>
There</w>
ins</w>
ldren</w>
P</w>
ely</w>
Wee
ian</w>
ical</w>
ged</w>
ort
pe</w>
fore</w>
ide
Pe
ue</w>
cor
10</w>
00</w>
tor</w>
el</w>
uring</w>
ama</w>
They</w>
cont
less</w>
Gu
may</w>
Go
tes</w>
Un
Mo
ational</w>
these</w>
ped</w>
tri
ste
fam
od</w>
Who</w>
ther</w>
pri
Fa
tur
ens</w>
Di
ect</w>
amily</w>
work</w>
ual</w>
could</w>
ants</w>
ign</w>
Up</w>
Bla
being</w>
Out</w>
C</w>
An</w>
rough</w>
Ste
back</w>
ig</w>
hers</w>
IDE
ff</w>
lack</w>
ur</w>
Her</w>
Mon
only</w>
ev
so
ain</w>
Do</w>
eg
og
sur
Sta
Cou
cu
comm
Pla
even</w>
want</w>
ish</w>
cri
Col
All</w>
yle</w>
alle
eas
duc
which</w>
sts</w>
Says</w>
sup
ters</w>
ashi
ittle</w>
where</w>
week</w>
also</w>
ten</w>
ls</w>
col
World</w>
Have</w>
ous
need</w>
VIDEO</w>
No</w>
American</w>
Che
tre
ound
Gre
America</w>
So</w>
Over</w>
Best</w>
cer
much</w>
take</w>
Lif
think</w>
rin
ative</w>
rist
right</w>
love</w>
war
For
say</w>
Women</w>
ger</w>
ffer
tal
Lea
mat
moc
ainst</w>
med
8</w>
Chri
down</w>
two</w>
chool</w>
Repub
Obama</w>
ater</w>
public
Just</w>
good</w>
mis
At
ck
ph
book</w>
Fin
sc
Rec
ick</w>
House</w>
ici
ber
lit
People</w>
Ca
leg
ince</w>
lie
ys</w>
see
ney</w>
nt</w>
vie
pon
see</w>
Is
der
ack
vis
9</w>
Whi
Sec
Make</w>
esti
Huff
Me
should</w>
those</w>
Post</w>
iving</w>
edding</w>
oman</w>
vel</w>
ality</w>
cess</w>
any
ling</w>
ever</w>
z</w>
read
thy</w>
alth
poli
ft</w>
tru
Har
Clin
Our</w>
ship</w>
She</w>
ean</w>
off</w>
lan
Get</w>
19
Democ
land</w>
Like</w>
im</w>
stud
because</w>
Off
Yor
itter</w>
Med
happ
hoto
help</w>
ivor
Poli
te</w>
ase</w>
tiv
line</w>
last</w>
women</w>
ili
Life</w>
arents</w>
L</w>
Inter
Most</w>
atch</w>
exper
Wed
going</w>
Pl
These</w>
Chan
’t</w>
mate</w>
lee
ele
tly</w>
ower</w>
lice</w>
each</w>
still</w>
ments</w>
uti
ann
made</w>
President</w>
iness</w>
vern
fee
jo
Uni
ale</w>
through</w>
ping</w>
never</w>
inv
GO
b</w>
ep
T</w>
every
mber</w>
