[PAD] 0 
[UNK] 1 
[BOS] 2 
[EOS] 3 
<URL> 4 
<USER> 5 
<HASHTAG> 6 
<EMOTICON> 7 
<EMOJI> 8 
! 9 
\ 10 
" 11 
# 12 
$ 13 
% 14 
& 15 
' 16 
( 17 
) 18 
* 19 
+ 20 
, 21 
- 22 
. 23 
/ 24 
: 25 
; 26 
< 27 
= 28 
> 29 
? 30 
@ 31 
[ 32 
] 33 
^ 34 
_ 35 
` 36 
{ 37 
| 38 
} 39 
~ 40 
… 41 
</w> 42 
v 43 
4 44 
V 45 
Â 46 
3 47 
B 48 
r 49 
O 50 
L 51 
U 52 
Q 53 
a 54 
¡ 55 
Z 56 
q 57 
i 58 
h 59 
l 60 
G 61 
X 62 
1 63 
p 64 
C 65 
x 66 
M 67 
́ 68 
t 69 
b 70 
E 71 
P 72 
g 73 
j 74 
K 75 
e 76 
W 77 
9 78 
J 79 
A 80 
F 81 
I 82 
y 83 
k 84 
D 85 
Ã 86 
n 87 
z 88 
Y 89 
d 90 
£ 91 
© 92 
8 93 
7 94 
u 95 
c 96 
0 97 
H 98 
R 99 
S 100 
N 101 
o 102 
T 103 
⁄ 104 
¿ 105 
w 106 
6 107 
5 108 
f 109 
s 110 
ï 111 
2 112 
m 113 
</w></w> 114 
<EMOJI></w> 115 
<EMOTICON></w> 116 
<HASHTAG></w> 117 
<URL></w> 118 
<USER></w> 119 
[BOS]</w> 120 
[EOS]</w> 121 
[PAD]</w> 122 
[UNK]</w> 123 
e</w> 124 
t</w> 125 
s</w> 126 
.</w> 127 
in 128 
y</w> 129 
th 130 
d</w> 131 
o</w> 132 
he 133 
n</w> 134 
an 135 
ng 136 
er 137 
r</w> 138 
re 139 
ou 140 
ha 141 
g</w> 142 
!</w> 143 
to 144 
on 145 
it 146 
or 147 
at 148 
is 149 
st 150 
ll 151 
ve 152 
l</w> 153 
nd 154 
a</w> 155 
me 156 
ea 157 
oo 158 
h</w> 159 
,</w> 160 
te 161 
es 162 
en 163 
ee 164 
al 165 
I</w> 166 
ar 167 
ho 168 
m</w> 169 
k</w> 170 
ay 171 
ti 172 
yo 173 
ne 174 
as 175 
le 176 
om 177 
ed 178 
so 179 
no 180 
lo 181 
ow 182 
hi 183 
u</w> 184 
ot 185 
et 186 
w</w> 187 
nt 188 
ut 189 
wa 190 
be 191 
i</w> 192 
li 193 
my 194 
se 195 
go 196 
fo 197 
da 198 
ur 199 
us 200 
ad 201 
wi 202 
ro 203 
co 204 
ke 205 
f</w> 206 
ch 207 
ri 208 
do 209 
ly 210 
il 211 
ni 212 
we 213 
ing</w> 214 
to</w> 215 
the</w> 216 
er</w> 217 
you 218 
ll</w> 219 
ve</w> 220 
is</w> 221 
in</w> 222 
my</w> 223 
ou</w> 224 
at</w> 225 
it</w> 226 
and</w> 227 
me</w> 228 
all 229 
on</w> 230 
?</w> 231 
p</w> 232 
day</w> 233 
't</w> 234 
for</w> 235 
's</w> 236 
ac 237 
an</w> 238 
ke</w> 239 
ver 240 
gh 241 
of</w> 242 
th</w> 243 
I' 244 
hav 245 
ter 246 
bu 247 
ca 248 
ic 249 
so</w> 250 
be</w> 251 
ht</w> 252 
ly</w> 253 
ut</w> 254 
ed</w> 255 
up 256 
ther 257 
rea 258 
out</w> 259 
tha 260 
one</w> 261 
now</w> 262 
es</w> 263 
le</w> 264 
ck</w> 265 
ba 266 
ma 267 
ust</w> 268 
was</w> 269 
ce</w> 270 
mor 271 
with 272 
ld</w> 273 
re</w> 274 
'm</w> 275 
ab 276 
thin 277 
pp 278 
ch</w> 279 
et</w> 280 
lly</w> 281 
uc 282 
ge 283 
id 284 
not</w> 285 
ome</w> 286 
la 287 
ra 288 
ad</w> 289 
the 290 
pl 291 
are</w> 292 
di 293 
ks</w> 294 
n' 295 
ood</w> 296 
wor 297 
jus 298 
-</w> 299 
com 300 
ow</w> 301 
ain 302 
am 303 
don 304 
ay</w> 305 
su 306 
ag 307 
fu 308 
ill 309 
lik 310 
our</w> 311 
Th 312 
gh</w> 313 
you</w> 314 
ght</w> 315 
have</w> 316 
that</w> 317 
with</w> 318 
ter</w> 319 
I'm</w> 320 
all</w> 321 
up</w> 322 
just</w> 323 
ally</w> 324 
but</w> 325 
n't</w> 326 
get</w> 327 
st</w> 328 
like</w> 329 
this</w> 330 
ver</w> 331 
wee 332 
can 333 
nigh 334 
hat</w> 335 
mo 336 
good</w> 337 
se</w> 338 
un 339 
ack</w> 340 
ant</w> 341 
go</w> 342 
itt 343 
ry</w> 344 
as</w> 345 
ir 346 
pe</w> 347 
fin 348 
haha 349 
love</w> 350 
mis 351 
ning</w> 352 
ould</w> 353 
wan 354 
bac 355 
for 356 
got</w> 357 
ha</w> 358 
mu 359 
no</w> 360 
nt</w> 361 
sh 362 
ts</w> 363 
your</w> 364 
bo 365 
do</w> 366 
fro 367 
hou 368 
ast</w> 369 
can</w> 370 
ex 371 
ett 372 
fa 373 
tw 374 
today</w> 375 
work</w> 376 
x</w> 377 
:</w> 378 
an't</w> 379 
ays</w> 380 
king</w> 381 
las 382 
rom</w> 383 
sp 384 
there</w> 385 
cou 386 
had</w> 387 
here</w> 388 
its</w> 389 
know</w> 390 
of 391 
fee 392 
going</w> 393 
ill</w> 394 
ing 395 
op 396 
pe 397 
ta 398 
ther</w> 399 
time</w> 400 
wha 401 
whe 402 
0</w> 403 
am</w> 404 
about</w> 405 
ff</w> 406 
nd</w> 407 
ough</w> 408 
ting</w> 409 
thing</w> 410 
too</w> 411 
"</w> 412 
3</w> 413 
night</w> 414 
back</w> 415 
from</w> 416 
S</w> 417 
anks</w> 418 
eep</w> 419 
ess</w> 420 
jo 421 
read 422 
really</w> 423 
de 424 
don't</w> 425 
how</w> 426 
ish</w> 427 
lee 428 
loo 429 
can't</w> 430 
ear 431 
si 432 
t's</w> 433 
ty</w> 434 
we</w> 435 
will</w> 436 
ain</w> 437 
aw 438 
im</w> 439 
ook</w> 440 
wh 441 
D</w> 442 
al</w> 443 
hy</w> 444 
more</w> 445 
morr 446 
ng</w> 447 
row</w> 448 
sl 449 
tomor 450 
when</w> 451 
(</w> 452 
2</w> 453 
con 454 
end</w> 455 
gre 456 
her</w> 457 
ion</w> 458 
much</w> 459 
na</w> 460 
oh</w> 461 
oooo 462 
ure</w> 463 
what</w> 464 
yea 465 
Ha 466 
ady</w> 467 
ard</w> 468 
ati 469 
b</w> 470 
che 471 
foll 472 
happ 473 
last</w> 474 
lea 475 
miss</w> 476 
par 477 
pre 478 
rs</w> 479 
L</w> 480 
Than 481 
The</w> 482 
come</w> 483 
if</w> 484 
ool</w> 485 
po 486 
sur 487 
than 488 
think</w> 489 
vi 490 
wis 491 
E</w> 492 
hh 493 
ive</w> 494 
itter</w> 495 
mm 496 
off</w> 497 
red</w> 498 
sa 499 
some</w> 500 
soo 501 
still</w> 502 
tu 503 
O</w> 504 
OO 505 
T</w> 506 
af 507 
did 508 
ec 509 
een</w> 510 
ent</w> 511 
fri 512 
gs</w> 513 
tomorr 514 
morrow</w> 515 
ready</w> 516 
gu 517 
haha</w> 518 
mon 519 
pro 520 
right</w> 521 
again</w> 522 
eed</w> 523 
ers</w> 524 
hope</w> 525 
it's</w> 526 
lol</w> 527 
nee 528 
sto 529 
see</w> 530 
tr 531 
though</w> 532 
us</w> 533 
want</w> 534 
wat 535 
're</w> 536 
LO 537 
My</w> 538 
ate</w> 539 
dow 540 
est</w> 541 
ite</w> 542 
new</w> 543 
orry</w> 544 
sor 545 
sleep</w> 546 
that 547 
use</w> 548 
way</w> 549 
Y</w> 550 
ir</w> 551 
morning</w> 552 
ur</w> 553 
wish</w> 554 
'll</w> 555 
)</w> 556 
any</w> 557 
ds</w> 558 
didn't</w> 559 
en</w> 560 
fun</w> 561 
gg 562 
great</w> 563 
he</w> 564 
hone</w> 565 
has</w> 566 
home</w> 567 
ice</w> 568 
ld 569 
never</w> 570 
or</w> 571 
ound</w> 572 
ph 573 
sed</w> 574 
them</w> 575 
very</w> 576 
why</w> 577 
yone</w> 578 
&</w> 579 
But</w> 580 
I'll</w> 581 
I've</w> 582 
N</w> 583 
Thanks</w> 584 
any 585 
bet 586 
bad</w> 587 
cu 588 
dy</w> 589 
ever 590 
lin 591 
old</w> 592 
other</w> 593 
only</w> 594 
pic 595 
star 596 
stu 597 
ted</w> 598 
then</w> 599 
very 600 
you' 601 
art</w> 602 
ation</w> 603 
by</w> 604 
dont</w> 605 
esome</w> 606 
etter</w> 607 
fe 608 
happy</w> 609 
his</w> 610 
id</w> 611 
ies</w> 612 
ink</w> 613 
tomorrow</w> 614 
need</w> 615 
sorry</w> 616 
better</w> 617 
ittle</w> 618 
lis 619 
lou 620 
nice</w> 621 
ps</w> 622 
sho 623 
sure</w> 624 
some 625 
twitter</w> 626 
ving</w> 627 
well</w> 628 
ying</w> 629 
#</w> 630 
'</w> 631 
4</w> 632 
A</w> 633 
M</w> 634 
You</w> 635 
ating</w> 636 
cant</w> 637 
ching</w> 638 
did</w> 639 
ey</w> 640 
ere</w> 641 
etting</w> 642 
fi 643 
feel</w> 644 
har 645 
ind</w> 646 
ked</w> 647 
min 648 
make</w> 649 
ment</w> 650 
ok</w> 651 
ous</w> 652 
ser 653 
should</w> 654 
thanks</w> 655 
they</w> 656 
z</w> 657 
IN 658 
It's</w> 659 
Just</w> 660 
So</w> 661 
after</w> 662 
already</w> 663 
awesome</w> 664 
been</w> 665 
bro 666 
bed</w> 667 
ci 668 
cit 669 
could</w> 670 
de</w> 671 
doing</w> 672 
end 673 
exc 674 
follow</w> 675 
fore</w> 676 
ga 677 
ince</w> 678 
litt 679 
lad</w> 680 
mi 681 
mp 682 
ope</w> 683 
over</w> 684 
per 685 
phone</w> 686 
pi 687 
qu 688 
sin 689 
twee 690 
take</w> 691 
um 692 
ways</w> 693 
weet</w> 694 
ye 695 
1</w> 696 
;</w> 697 
<3</w> 698 
K</w> 699 
What</w> 700 
app 701 
able</w> 702 
bea 703 
befor 704 
cha 705 
call</w> 706 
days</w> 707 
down</w> 708 
fe</w> 709 
feel 710 
find</w> 711 
gett 712 
gla 713 
little</w> 714 
before</w> 715 
glad</w> 716 
hea 717 
kend</w> 718 
mmer</w> 719 
na 720 
peop 721 
say</w> 722 
see 723 
since</w> 724 
soon</w> 725 
ta</w> 726 
tonight</w> 727 
ven't</w> 728 
were</w> 729 
would</w> 730 
9</w> 731 
And</w> 732 
G</w> 733 
Good</w> 734 
Tha 735 
ar</w> 736 
ade</w> 737 
always</w> 738 
ang 739 
br 740 
buy</w> 741 
cause</w> 742 
chool</w> 743 
du 744 
ease</w> 745 
everyone</w> 746 
follow 747 
friend 748 
getting</w> 749 
han 750 
hed</w> 751 
hit</w> 752 
lu 753 
ons</w> 754 
ople</w> 755 
pr 756 
party</w> 757 
plea 758 
pret 759 
ru 760 
sch 761 
sing</w> 762 
ses</w> 763 
tra 764 
ten</w> 765 
that's</w> 766 
tion</w> 767 
und 768 
*</w> 769 
HA 770 
Im</w> 771 
Lo 772 
We 773 
aying</w> 774 
best</w> 775 
book</w> 776 
cre 777 
ding</w> 778 
dis 779 
eeee 780 
excit 781 
give</w> 782 
hur 783 
hat's</w> 784 
hours</w> 785 
ic</w> 786 
irst</w> 787 
life</w> 788 
look</w> 789 
mes</w> 790 
movi 791 
oo</w> 792 
pping</w> 793 
res 794 
summ 795 
tri 796 
tty</w> 797 
tired</w> 798 
wn</w> 799 
wo 800 
won 801 
ws</w> 802 
wait</w> 803 
week 804 
week</w> 805 
yes</w> 806 
yet</w> 807 
you're</w> 808 
/</w> 809 
8</w> 810 
ER 811 
Go 812 
Is</w> 813 
people</w> 814 
please</w> 815 
pretty</w> 816 
school</w> 817 
weekend</w> 818 
It</w> 819 
LOL</w> 820 
Oh</w> 821 
RE 822 
The 823 
Tw 824 
That's</w> 825 
U</w> 826 
ama 827 
age</w> 828 
another</w> 829 
bi 830 
brea 831 
chi 832 
comp 833 
does 834 
early</w> 835 
ff 836 
first</w> 837 
ft</w> 838 
fav 839 
friends</w> 840 
gir 841 
gon 842 
guess</w> 843 
hh</w> 844 
haven't</w> 845 
having</w> 846 
hey</w> 847 
house</w> 848 
ick</w> 849 
ide 850 
inter 851 
ings</w> 852 
iting</w> 853 
led</w> 854 
looks</w> 855 
man</w> 856 
mil 857 
nn 858 
off 859 
onna</w> 860 
pa 861 
ree</w> 862 
sad</w> 863 
sting</w> 864 
start</w> 865 
summer</w> 866 
te</w> 867 
till</w> 868 
ust 869 
v</w> 870 
vid 871 
ved</w> 872 
wanna</w> 873 
who</w> 874 
year</w> 875 
've</w> 876 
6</w> 877 
De 878 
GH 879 
H</w> 880 
Have</w> 881 
LL</w> 882 
Mon 883 
OM 884 
OU 885 
W</w> 886 
Wor 887 
ah</w> 888 
ap 889 
away</w> 890 
ace</w> 891 
alk</w> 892 
alo 893 
ans</w> 894 
bl 895 
because</w> 896 
ce 897 
clo 898 
cool</w> 899 
done</w> 900 
e's</w> 901 
ell 902 
eve 903 
ever</w> 904 
ealou 905 
eat</w> 906 
ent 907 
erst 908 
esday</w> 909 
esn't</w> 910 
fan 911 
ful</w> 912 
gr 913 
to_be 914 
to_go 915 
in_the 916 
for_the 917 
going_to 918 
have_to 919 
to_get 920 
to_the 921 
at_the 922 
I_don't 923 
I_have 924 
had_a 925 
on_the 926 
so_much 927 
want_to 928 
I_can 929 
and_I 930 
it_was 931 
of_my 932 
a_good 933 
go_to 934 
it_is 935 
of_the 936 
on_my 937 
I_can't 938 
i_love 939 
i_was 940 
is_a 941 
to_do 942 
with_my 943 
you_are 944 
I_am 945 
I_was 946 
back_to 947 
but_i 948 
have_a 949 
i_miss 950 
last_night 951 
on_a 952 
to_see 953 
will_be 954 
day_of 955 
get_to 956 
i_dont 957 
in_my 958 
is_so 959 
need_to 960 
right_now 961 
I_guess 962 
I_just 963 
I_will 964 
I'm_so 965 
Thanks_for 966 
about_to 967 
i_can 968 
i_know 969 
is_on 970 
like_a 971 
off_to 972 
thank_you 973 
to_a 974 
to_bed 975 
to_buy 976 
to_work 977 
when_I 978 
wish_i 979 
with_me 980 
with_the 981 
Good_morning 982 
I_could 983 
I_hope 984 
I_love 985 
I_want 986 
I'm_going 987 
I've_got 988 
a_little 989 
all_the 990 
are_you 991 
but_I 992 
have_the 993 
i_have 994 
i_just 995 
i_think 996 
miss_you 997 
that_I 998 
that_was 999 
to_me 1000 
was_a 1001 
you_know 1002 
I_didn't 1003 
I_feel 1004 
I_got 1005 
I_had 1006 
I_hate 1007 
I_miss 1008 
I_think 1009 
I_wish 1010 
I'm_not 1011 
Thank_you 1012 
a_great 1013 
a_lot 1014 
all_of 1015 
and_the 1016 
at_my 1017 
be_in 1018 
dont_know 1019 
for_a 1020 
for_me 1021 
for_my 1022 
for_you 1023 
good_day 1024 
had_to 1025 
i_need 1026 
im_not 1027 
is_the 1028 
love_you 1029 
make_it 1030 
my_life 1031 
out_with 1032 
should_be 1033 
thanks_for 1034 
this_morning 1035 
to_sleep 1036 
to_watch 1037 
to_you 1038 
up_and 1039 
we_are 1040 
when_you 1041 
you_have 1042 
But_I 1043 
I_cant 1044 
I_get 1045 
I_know 1046 
I_really 1047 
It_was 1048 
a_new 1049 
able_to 1050 
about_it 1051 
an_hour 1052 
and_i 1053 
are_the 1054 
as_I 1055 
at_all 1056 
at_home 1057 
be_at 1058 
but_its 1059 
come_back 1060 
don't_have 1061 
dont_have 1062 
forward_to 1063 
get_some 1064 
got_a 1065 
got_to 1066 
having_a 1067 
i_am 1068 
i_got 1069 
i_really 1070 
i_should 1071 
i_want 1072 
if_it 1073 
in_a 1074 
is_all 1075 
is_gone 1076 
just_had 1077 
like_my 1078 
listen_to 1079 
listening_to 1080 
look_like 1081 
looks_like 1082 
making_my 1083 
my_mom 1084 
my_phone 1085 
not_a 1086 
not_good 1087 
now_I 1088 
of_work 1089 
so_I 1090 
so_far 1091 
the_last 1092 
the_movie 1093 
the_sun 1094 
time_to 1095 
to_eat 1096 
to_have 1097 
to_start 1098 
trying_to 1099 
why_i 1100 
woke_up 1101 
would_be 1102 
you_I 1103 
you_should 1104 
Have_a 1105 
I_did 1106 
I_forgot 1107 
I_gotta 1108 
I_like 1109 
I_would 1110 
I'll_still 1111 
I'm_in 1112 
Is_it 1113 
