[PAD]
[UNK]
[BOS]
[EOS]
<URL>
<USER>
<HASHTAG>
<EMOTICON>
<EMOJI>
!
\
"
#
$
%
&
'
(
)
*
+
,
-
.
/
:
;
<
=
>
?
@
[
]
^
_
`
{
|
}
~
…
</w>
S
â
æ
7
O
ë
Í
×
Ê
ê
ç

P
f
U


è


T
G
Ã
N

̈
x
¤
Ä

£

4

D
Ï
ä
¶
̄
u
Ñ
r
Î
·
È

Û
Ë
1
H
i
Ò
s
Ì
l
V
±
É
Ç
c
í
R
C
¥
h
Q
⁄
̧
p
0

a
­
Ð
w
n
ß
m
́
¦
¢
Å
W

Ó
¡
°
L
t
g
ï
b


B
9
Â

A


©
3
Ù
F
E
Ú
à
ì
é
á
M
q

Ø
5
8
¬


v

k

å
2

X
y
μ
ã

o
6
Æ
§
z
®

I
Y
¿

J
K
j
e

î
Z
d
</w></w>
<EMOJI></w>
<EMOTICON></w>
<HASHTAG></w>
<URL></w>
<USER></w>
[BOS]</w>
[EOS]</w>
[PAD]</w>
[UNK]</w>
e</w>
t</w>
s</w>
.</w>
in
y</w>
th
d</w>
n</w>
o</w>
he
an
ng
r</w>
er
g</w>
to
ou
re
ha
on
!</w>
or
at
it
I</w>
'</w>
a</w>
l</w>
st
me
nd
is
ll
ve
ea
h</w>
te
en
,</w>
m</w>
es
ee
ed
ay
ar
ne
oo
al
ho
ti
k</w>
hi
le
om
as
w</w>
ow
no
so
ut
yo
wa
u</w>
se
et
lo
i</w>
ot
be
go
nt
da
fo
li
us
f</w>
el
my
we
ch
wi
ad
ke
ri
ro
co
ur
ly
il
ing</w>
to</w>
the</w>
you
in</w>
is</w>
it</w>
ve</w>
and</w>
at</w>
on</w>
me</w>
ou</w>
my</w>
p</w>
?</w>
day</w>
for</w>
an</w>
ac
gh
of</w>
ca
ic
the
tha
ke</w>
er</w>
th</w>
bu
ed</w>
ht</w>
ut</w>
hav
ck</w>
out</w>
up
so</w>
ll</w>
one</w>
ust</w>
ig
now</w>
rea
be</w>
ma
es</w>
le</w>
wor
ba
ly</w>
ch</w>
with
thin
ni
et</w>
ce</w>
ra
ge
mor
kin
uc
ld</w>
re</w>
all
do
ad</w>
lly</w>
am
pl
ood</w>
ab
all</w>
pp
was</w>
ome</w>
jus
su
ter</w>
not</w>
ks</w>
he</w>
ay</w>
un
id
sa
wee
di
la
our</w>
si
ain
de
thi
oul
ak
ver
fu
are</w>
ag
you</w>
ght</w>
that</w>
have</w>
but</w>
with</w>
just</w>
up</w>
this</w>
st</w>
can</w>
get</w>
king</w>
-</w>
se</w>
hat</w>
nigh
like</w>
"</w>
good</w>
ir
go</w>
ver</w>
ry</w>
mo
wan
ts</w>
ould</w>
ant</w>
ack</w>
work</w>
do</w>
am</w>
too</w>
today</w>
gh</w>
no</w>
your</w>
ere</w>
got</w>
ther</w>
ting</w>
here</w>
time</w>
bo
rom</w>
bac
:</w>
fro
mis
thing</w>
whe
going</w>
fin
ther
2</w>
love</w>
x</w>
as</w>
ning</w>
fee
ast</w>
ff</w>
ex
ill</w>
hou
ell</w>
wha
nd</w>
haha
pe
how</w>
ers</w>
nt</w>
E</w>
know</w>
ha</w>
we</w>
end</w>
sp
ays</w>
po
sh
ow</w>
for
about</w>
os
don</w>
las
of
will</w>
cou
op
na</w>
wit
tr
really</w>
mu
eep</w>
ng</w>
night</w>
from</w>
back</w>
what</w>
some</w>
see</w>
ish</w>
com
wat
more</w>
loo
way</w>
had</w>
ear
vi
ain</w>
ate</w>
0</w>
im</w>
&</w>
lea
ice</w>
nee
T</w>
gu
red</w>
its</w>
wh
een</w>
han
ool</w>
ough</w>
anks</w>
fri
al</w>
want</w>
there</w>
3</w>
sl
ally</w>
lol</w>
S</w>
che
think</w>
by</w>
new</w>
row</w>
It</w>
ter
(</w>
ess</w>
aw
eed</w>
thou
gre
or</w>
sed</w>
home</w>
)</w>
still</w>
b</w>
con
ta
when</w>
they</w>
if</w>
well</w>
much</w>
than
ite</w>
ty</w>
read
fa
jo
ic</w>
bee
pe</w>
Th
ati
id</w>
ever
miss</w>
ted</w>
tomor
ent</w>
D</w>
morro
some
yea
last</w>
her</w>
L</w>
ion</w>
reat</w>
ine</w>
rs</w>
off</w>
fe
leep</w>
pro
need</w>
tomorrow</w>
witter</w>
ure</w>
pre
Ha
Y</w>
then</w>
been</w>
ds</w>
come</w>
has</w>
happ
ven</w>
gs</w>
qu
est</w>
twit
use</w>
My</w>
foll
right</w>
ying</w>
sto
any
again</w>
morning</w>
um
feel</w>
ked</w>
haha</w>
A</w>
lu
get
ppy</w>
tu
own</w>
The</w>
par
nds</w>
O</w>
ching</w>
great</w>
af
ready</w>
Just</w>
twee
sleep</w>
sor
every
fun</w>
You</w>
us</w>
stu
any</w>
ick</w>
dy</w>
oon</w>
ound</w>
orry</w>
Than
sad</w>
dow
4</w>
sho
res
did
mi
would</w>
LO
ir</w>
te</w>
bet
app
though</w>
ing
eve
bad</w>
star
ont</w>
art</w>
only</w>
hope</w>
ving</w>
z</w>
hu
ge</w>
etting</w>
very</w>
his</w>
tonight</w>
them</w>
min
she</w>
ru
mon
1</w>
onna</w>
make</w>
over</w>
wish</w>
other</w>
gr
gi
ard</w>
ot</w>
days</w>
na
bed</w>
ys</w>
thanks</w>
per
est
en</w>
oh</w>
ph
better</w>
Go
har
did</w>
twitter</w>
ling</w>
xt</w>
br
ace</w>
ous</w>
hone</w>
gonna</w>
fe</w>
lf</w>
week</w>
should</w>
wait</w>
ar</w>
could</w>
getting</w>
mes</w>
ation</w>
chool</w>
G</w>
N</w>
sch
ful</w>
ms</w>
ople</w>
ps</w>
bi
tle</w>
nice</w>
c</w>
cause</w>
ey</w>
ci
peop
boo
why</w>
de</w>
5</w>
ny</w>
sorry</w>
Lo
IN
ga
feel
itt
follow
down</w>
him</w>
ding</w>
didn</w>
lit
fi
whi
sing</w>
ye
happy</w>
kend</w>
ade</w>
week
But</w>
ER
hea
And</w>
sc
bea
R</w>
hate</w>
kes</w>
even</w>
tal
ur</w>
mp
So</w>
Good</w>
und
soon</w>
nex
iting</w>
ive</w>
pr
school</w>
people</w>
weekend</w>
hey</w>
Thanks</w>
esome</w>
were</w>
after</w>
ft</w>
hh</w>
watching</w>
next</w>
shi
say</w>
*</w>
gir
ways</w>
Oh</w>
dont</w>
sid
ok</w>
ce
irst</w>
ide</w>
never</w>
ats</w>
lat
il</w>
ment</w>
That</w>
exc
ons</w>
soo</w>
hur
pic
fir
little</w>
sure</w>
ff
HA
oo</w>
long</w>
where</w>
No</w>
mer</w>
M</w>
awes
ends</w>
who</w>
frie
take</w>
rain</w>
TH
phone</w>
wanna</w>
bl
cant</w>
ree</w>
ide
wea
aying</w>
yes</w>
chi
hel
sick</w>
movi
ity</w>
yeah</w>
son</w>
ble</w>
pa
tired</w>
working</w>
watch</w>
ely</w>
being</w>
cu
doing</w>
most</w>
show</w>
tion</w>
than</w>
cra
ta</w>
man</w>
sup
friend</w>
tri
self</w>
love
mme
comp
ever</w>
bro
best</w>
v</w>
ating</w>
everyone</w>
tra
able</w>
awesome</w>
first</w>
friends</w>
done</w>
life</w>
LOL</w>
already</w>
having</w>
till</w>
plea
ould
find</w>
see
suc
ans</w>
til</w>
side</w>
brea
We</w>
early</w>
K</w>
something</w>
always</w>
hed</w>
zing</w>
U</w>
ran
guys</w>
made</w>
P</w>
let</w>
C</w>
won</w>
inter
fore</w>
du
hours</w>
ood
cool</w>
ki
yet</w>
feeling</w>
sum
les</w>
and
tty</w>
dis
ited</w>
ance</w>
maz
because</w>
chan
da</w>
H</w>
ping</w>
dr
ser
befor
look</w>
ya</w>
cr
ink</w>
house</w>
What</w>
aybe</w>
ct</w>
does
ber</w>
ease</w>
late</w>
tw
pi
away</w>
old</w>
<3</w>
age</w>
ama
ww</w>
ily</w>
ss</w>
sha
ies</w>
pret
OU
sin
ky</w>
another</w>
mmer</w>
ishe
ner</w>
ck
@</w>
went</w>
ond
bit</w>
der</w>
movie</w>
dea
W</w>
ma</w>
before</w>
pretty</w>
ster</w>
out
Wh
sou
mm</w>
aww</w>
list
por
book</w>
Not</w>
things</w>
please</w>
times</w>
coming</w>
roo
bir
off
OM
into</w>
00</w>
ws</w>
wo
looking</w>
clo
ute</w>
ah</w>
mar
Is</w>
follow</w>
irth
mus
tweet</w>
while</w>
left</w>
enjo
vis
8</w>
year</w>
ses</w>
lad</w>
lled</w>
ort</w>
head</w>
wr
ls</w>
thr
Can</w>
ew</w>
6</w>
ening</w>
help</w>
tur
EA
summer</w>
9</w>
thday</w>
thought</w>
start</w>
sun
sm
fun
blo
oor</w>
try</w>
rain
ese</w>
ise</w>
How</w>
are
ight</w>
play</w>
zy</w>
xx</w>
Twitter</w>
same</w>
tho
Have</w>
tually</w>
sucks</w>
amazing</w>
lost</w>
AN
someone</w>
;</w>
ist</w>
later</w>
Im</w>
missed</w>
many</w>
got
hear</w>
keep</w>
ester
guess</w>
ON
Now</w>
actu
stuff</w>
live</w>
trying</w>
ye</w>
girl</w>
res</w>
1⁄
weather</w>
bur
This</w>
unch</w>
kin</w>
thank</w>
ken</w>
doesn</w>
hot</w>
song</w>
ber
7</w>
lling</w>
ned</w>
ope</w>
gg
esterday</w>
was
eat</w>
dam
hard</w>
vo
said</w>
lot</w>
Hop
baby</w>
bored</w>
lls</w>
pt</w>
weet</w>
bly</w>
read</w>
party</w>
few</w>
Li
wond
two</w>
yester
ved</w>
cre
those</w>
dri
sun</w>
ouldn</w>
cer
din
ated</w>
until</w>
win
fam
uti
ward</w>
big</w>
line</w>
makes</w>
B</w>
swee
actually</w>
game</w>
cor
car</w>
since</w>
around</w>
tell</w>
less</w>
myself</w>
ears</w>
ali
ugh</w>
can
ul
sit
does</w>
saw</w>
excited</w>
nts</w>
nothing</w>
che</w>
Mor
might</w>
pping</w>
upd
ished</w>
F</w>
world</w>
ass</w>
Going</w>
maybe</w>
wake</w>
ream</w>
pic</w>
least</w>
vide
tes</w>
yesterday</w>
clas
des
slee
lie
On
pres
NO
ING</w>
luck</w>
Al
Hope</w>
body</w>
Well</w>
looks</w>
Hey</w>
utiful</w>
ves</w>
10</w>
kay</w>
birthday</w>
finally</w>
mer
job</w>
give</w>
im
music</w>
their</w>
hair</w>
such</w>
ile</w>
waiting</w>
Wor
also</w>
ary</w>
bus
St
></w>
/</w>
py</w>
eve</w>
cold</w>
wal
put</w>
top</w>
thats</w>
call</w>
kid
Co
room</w>
war
gone</w>
cho
ne</w>
ble
beli
found</w>
tho</w>
Happy</w>
Thank</w>
fast</w>
Wat
Mon
who
mem
talk</w>
If</w>
ffe
tru
aking</w>
light</w>
damn</w>
fully</w>
tly</w>
rong</w>
glad</w>
cha
anything</w>
mom</w>
atur
beauti
gra
w/
ent
ER</w>
Why</w>
pu
bor
hurts</w>
ee</w>
ence</w>
leave</w>
fac
ue</w>
mean</w>
com</w>
AY</w>
far</w>
Mo
hour</w>
belie
At</w>
making</w>
haven</w>
ded</w>
sig
food</w>
lieve</w>
stop</w>
He</w>
beautiful</w>
wanted</w>
ings</w>
Yea
Its</w>
set</w>
ton</w>
hing</w>
VE</w>
To
land</w>
cute</w>
sted</w>
forward</w>
au
man
iP
check</w>
isn</w>
spe
must</w>
ous
good
elcome</w>
gotta</w>
ched</w>
ear</w>
family</w>
thers</w>
lunch</w>
wer</w>
kn
tot
inst
Ti
dinner</w>
followers</w>
funny</w>
without</w>
pho
hi</w>
Ro
coo
car
woke</w>
eah</w>
US
mat
They</w>
Fri
rep
ust
ley</w>
wn</w>
V</w>
place</w>
per</w>
sly</w>
sounds</w>
shit</w>
free</w>
nding</w>
Ho
site</w>
missing</w>
fl
Sorry</w>
30</w>
ap
je
almost</w>
um</w>
led</w>
sur
outside</w>
through</w>
ates</w>
¿1⁄
ï¿
tea
yay</w>
upid</w>
real</w>
enough</w>
sion</w>
als</w>
everything</w>
ones</w>
bably</w>
anymore</w>
believe</w>
Yeah</w>
ï¿1⁄
Love</w>
ming</w>
video</w>
finished</w>
hen</w>
playing</w>
fav
ering</w>
weeks</w>
TI
may</w>
which</w>
AL
So
wrong</w>
port</w>
thinking</w>
didnt</w>
buy</w>
bs</w>
hahaha</w>
Rea
In</w>
wonder
net</w>
ously</w>
ets</w>
De
ten</w>
these</w>
ns</w>
00
friday</w>
tor</w>
OR
cour
ffee</w>
ei
llo</w>
ither</w>
mine</w>
pped</w>
coffe
head
ED</w>
sweet</w>
On</w>
tic
mail</w>
Loo
mes
name</w>
our
ahh</w>
win</w>
OO
following</w>
Got</w>
came</w>
MA
tweets</w>
ture</w>
okay</w>
Still</w>
money</w>
ths</w>
aturday</w>
Fin
Morning</w>
LL</w>
ought</w>
says</w>
remem
totally</w>
nite</w>
bou
ple</w>
plan
anyone</w>
seen</w>
poor</w>
fuc
every</w>
sy</w>
He
listening</w>
stay</w>
member</w>
heada
ack
cked</w>
face</w>
under
rest</w>
pefully</w>
ell
hor
coffee</w>
pis
home
Day</w>
probably</w>
ery</w>
Re
ze</w>
YO
ugh
=</w>
using</w>
lle
Watching</w>
ngr
happen
Haha</w>
el</w>
ote</w>
mind</w>
wow</w>
Bo
An
zz
part</w>
class</w>
OU</w>
dec
whole</w>
ness</w>
cks</w>
wants</w>
used</w>
ban
cal</w>
une</w>
LY</w>
load</w>
busy</w>
ES
Aww</w>
Yes</w>
idea</w>
kids</w>
Sund
tun
ie</w>
ball</w>
reading</w>
Jo
ang</w>
hehe</w>
Do
oot</w>
dad</w>
stupid</w>
Don</w>
fre
omg</w>
+</w>
enjoy</w>
ago</w>
int</w>
exam</w>
proble
ty
Had</w>
hit</w>
pri
years</w>
ket</w>
lovely</w>
mac
lease</w>
yy</w>
bout</w>
bye</w>
seri
Mis
ep
welcome</w>
eating</w>
post</w>
headache</w>
kinda</w>
iPhone</w>
ang
else</w>
em</w>
ened</w>
test</w>
dying</w>
Friday</w>
cat
half</w>
cur
both</w>
She</w>
run
ead</w>
YOU</w>
ction</w>
meet</w>
full</w>
guy</w>
ker</w>
tre
Ma
Back</w>
either</w>
cuz</w>
Me</w>
took</w>
sea
taking</w>
lous</w>
lear
load
sy
news</w>
low</w>
New</w>
beach</w>
OMG</w>
run</w>
town</w>
play
wasn</w>
crazy</w>
hurt</w>
cas
gar
fr
IT</w>
Sunday</w>
av
lin
concer
boo</w>
pics</w>
ress</w>
forgot</w>
ummy</w>
down
Monday</w>
uter</w>
ans
trip</w>
compu
raining</w>
dog</w>
tv</w>
med</w>
ucky</w>
Mar
wed
ju
after
shopping</w>
esday</w>
hes</w>
add</w>
IN</w>
str
cl
dra
alone</w>
ried</w>
course</w>
dic
char
send</w>
blog</w>
remember</w>
rec
SO</w>
hell</w>
tern
Fee
ishing</w>
gets</w>
break
pain</w>
rible</w>
cial</w>
TV</w>
ters</w>
All</w>
space</w>
started</w>
ten
boy</w>
Che
Be
ntly</w>
ations</w>
Wi
Ex
heard</w>
once</w>
computer</w>
talking</w>
ï¿1⁄2
hung
sing
ale</w>
sting</w>
ME</w>
dro
girls</w>
office</w>
God</w>
pen</w>
cli
true</w>
Br
Lol</w>
break</w>
nor
ici
anc
wont</w>
ES</w>
kind</w>
change</w>
den</w>
tast
watched</w>
heart</w>
bas
ger</w>
RI
Yay</w>
air
twitter
clu
seems</w>
ney</w>
Dam
needs</w>
feels</w>
sal
ately</w>
aw</w>
fine</w>
grad
ows</w>
couldn</w>
super</w>
picture</w>
seeing</w>
view</w>
w/</w>
pas
ug
favor
tried</w>
bb
ams</w>
cont
goes</w>
utes</w>
AT
diff
ging</w>
sitting</w>
pm</w>
REA
THE</w>
person</w>
No
IS</w>
reas
There</w>
ebook</w>
suppo
stuck</w>
minu
tw</w>
yed</w>
defin
noon</w>
ia</w>
told</w>
lots</w>
LOVE</w>
leaving</w>
online</w>
lan
cle
gy</w>
stand</w>
Wish</w>
Hi</w>
quite</w>
uch</w>
ils</w>
]</w>
band</w>
care</w>
minutes</w>
cry</w>
Great</w>
os</w>
Off</w>
god</w>
cut</w>
asleep</w>
count</w>
Good
photo
100</w>
TO</w>
ped</w>
tely</w>
ligh
Will</w>
broke</w>
sk
Please</w>
Ar
nded</w>
twi
lad
sts</w>
Wow</w>
awake</w>
breakfast</w>
long
link</w>
boring</w>
month</w>
ask</w>
called</w>
walk</w>
bum</w>
Ch
pay</w>
update</w>
turn</w>
Today</w>
onal</w>
interest
bri
sund
Tu
kee
HO
Time</w>
concert</w>
Ugh</w>
works</w>
but
eting</w>
loved</w>
hmm</w>
ered</w>
ON</w>
move</w>
X</w>
adi
pan
sunny</w>
adly</w>
inking</w>
ssi
favorite</w>
hoo</w>
fig
gether</w>
bought</w>
un</w>
web
oud</w>
OO</w>
Wa
frea
over
sister</w>
drea
--</w>
jea
key</w>
Par
drin
dar
train</w>
meet
instead</w>
reply</w>
itely</w>
Mi
Tr
monday</w>
fan</w>
internet</w>
20</w>
pos
hungry</w>
10
qui
la</w>
sleeping</w>
hopefully</w>
drive</w>
AR
ayy</w>
ol
study</w>
anno
Fo
clea
secon
nap</w>
back
comple
afternoon</w>
EE
hon
lap
list</w>
lish</w>
scre
bit
cream</w>
duc
gy
lon
MY</w>
IT
NE
season</w>
starting</w>
shower</w>
eg
men
together</w>
Maybe</w>
under</w>
dou
holi
tin</w>
messa
sen
ngs</w>
open</w>
acti
~</w>
igh
mag
Some
12</w>
Hea
pac
dle</w>
died</w>
En
ari
ld
ining</w>
Too</w>
text</w>
anyway</w>
wear</w>
mid
aning</w>
comes</w>
Getting</w>
perfe
llow</w>
song
finish</w>
means</w>
Damn</w>
box</w>
fortun
vac
EV
lar
ower</w>
To</w>
problem</w>
UC
lucky</w>
ments</w>
day
write</w>
sore</w>
Gu
Get</w>
jealous</w>
dd
ler</w>
happened</w>
NOT</w>
Chi
eng
couple</w>
ngrats</w>
bby</w>
MO
Un
exams</w>
oin
1st</w>
bring</w>
vid</w>
email</w>
crap</w>
count
pain
mad</w>
ird</w>
die</w>
appo
men</w>
AND</w>
rela
owing</w>
brother</w>
wonderful</w>
colle
Sh
revis
xo
sca
mom
pare
pool</w>
sunday</w>
weir
word</w>
sn
zed</w>
lla</w>
ana</w>
kit
movies</w>
dude</w>
11</w>
ckets</w>
reali
via</w>
gradu
album</w>
tick
usu
â
nch</w>
reci
running</w>
ake</w>
ches</w>
months</w>
hear
homework</w>
reason</w>
IS
happen</w>
mp</w>
drink</w>
gen
quest
bar
Con
btw</w>
shine</w>
seriously</w>
stra
tie</w>
EN
ppl</w>
Saturday</w>
vice</w>
evening</w>
store</w>
shir
ride</w>
ins</w>
fuck</w>
One</w>
wing</w>
fil
laptop</w>
Sou
water</w>
vin</w>
sti
Ever
ST
suck</w>
ries</w>
songs</w>
acc
RO
chur
Gr
eyes</w>
ring</w>
ions</w>
appoin
definitely</w>
ind</w>
dead</w>
mao</w>
thro
Your</w>
ick
Ð</w>
piso
swi
sound</w>
seem</w>
berry</w>
close</w>
fall</w>
num
tory</w>
Twee
wine</w>
visit</w>
Do</w>
tube</w>
Da
Ok</w>
stor
boy
Last</w>
ess
boys</w>
offici
agree</w>
dom</w>
high</w>
ddy</w>
possi
cake</w>
goin</w>
yone</w>
Ju
differ
tures</w>
mit</w>
mood</w>
tea</w>
xo</w>
pen
tour</w>
Nice</w>
fucking</w>
dream</w>
broken</w>
shop</w>
J</w>
ser</w>
iness</w>
page</w>
epis
ep</w>
ital</w>
vers
cept</w>
fortunately</w>
lor
each</w>
lma
ooh</w>
em
Really</w>
hoping</w>
ele
meeting</w>
church</w>
fore
tickets</w>
city</w>
prom
gym</w>
disapp
bla
moment</w>
cking</w>
uring</w>
unk</w>
listen</w>
cat</w>
THA
enjoying</w>
Bi
yea</w>
Up</w>
weird</w>
nes</w>
LA
sh</w>
ob
Every
sin</w>
Finally</w>
RA
episo
xing</w>
hang</w>
Twit
sent</w>
itting</w>
studying</w>
Did</w>
--
don
sn</w>
ina</w>
lil</w>
hello</w>
colate</w>
ner
ised</w>
fail</w>
mou
choco
worth</w>
interesting</w>
work
loves</w>
tor
ush</w>
DAY</w>
writing</w>
dear</w>
For</w>
cele
When</w>
date</w>
ards</w>
fan
catch</w>
second</w>
ged</w>
lor</w>
fly</w>
squ
knew</w>
final</w>
mi</w>
uck</w>
Enjo
sometimes</w>
throat</w>
App
sive</w>
WA
Night</w>
Pl
ani
lli
Let</w>
understand</w>
past</w>
saying</w>
Pro
joy</w>
In
od</w>
Di
FA
LI
blu
15</w>
dance</w>
facebook</w>
Where</w>
oog
30
Was</w>
fair</w>
mil
parents</w>
Se
Then</w>
real
act</w>
supposed</w>
Si
June</w>
let
Ð3
Very</w>
fli
perfect</w>
Bu
fer
gle</w>
words</w>
goodnight</w>
ages</w>
HE
Car
AM</w>
point</w>
vent</w>
Sp
story</w>
cially</w>
dress</w>
depres
ash</w>
pictures</w>
sleepy</w>
aren</w>
Glad</w>
bus</w>
ject</w>
cted</w>
lmao</w>
OME</w>
ces</w>
smile</w>
gave</w>
account</w>
pea
due</w>
200
short</w>
GH
recor
%</w>
forget</w>
Go</w>
dreams</w>
lept</w>
cti
wedding</w>
moving</w>
longer</w>
arently</w>
rock</w>
cover
solu
ens</w>
ics</w>
ses
Only</w>
Aw
worst</w>
chance</w>
chocolate</w>
tive</w>
NO</w>
lle</w>
plan</w>
ore</w>
att
CON
ac</w>
clean</w>
|</w>
easy</w>
GO
tweeting</w>
ult</w>
woo
lier</w>
peri
ind
proje
ship</w>
xed</w>
inv
worse</w>
iled</w>
sub
rather</w>
pick</w>
rself</w>
her
hand</w>
ross</w>
USER
Sha
dd</w>
<US
slow</w>
earli
min</w>
part
cro
gers</w>
urs
co</w>
Ahh</w>
wouldn</w>
ray</w>
cally</w>
mal</w>
doesnt</w>
Bl
sday</w>
horrible</w>
ong</w>
sme
<USER
updates</w>
s*</w>
LA</w>
heading</w>
ris</w>
RE
HA</w>
cos</w>
three</w>
cen
sunshine</w>
Are</w>
upset</w>
q</w>
form
cal
saturday</w>
ges</w>
ided</w>
grou
zz</w>
mum</w>
EE</w>
FO
des</w>
plans</w>
spea
Po
Ano
lie</w>
chat</w>
fell</w>
earlier</w>
Le
nother</w>
driving</w>
hrs</w>
CA
spend</w>
Ð3⁄
camer
Qu
scared</w>
IC
flu</w>
stre
BA
youtube</w>
mas
els</w>
cleaning</w>
college</w>
llin</w>
cance
eri
produc
bet</w>
worry</w>
deli
ohh</w>
Need</w>
ook</w>
mate</w>
ran</w>
arri
during</w>
e-
ica</w>
rd</w>
loving</w>
tex
BB
noo</w>
shirt</w>
PL
Sad</w>
oogle</w>
conne
website</w>
Trying</w>
Looking</w>
case</w>
grand
pur
NOW</w>
BU
nah</w>
mach</w>
shows</w>
sa</w>
Can
ghh</w>
issu
wonder</w>
Goodnight</w>
Hello</w>
YAY</w>
ja
arm</w>
Another</w>
special</w>
lying</w>
ursday</w>
Who</w>
flight</w>
paper</w>
mother</w>
Work</w>
ayed</w>
earing</w>
ouldnt</w>
set
sters</w>
Gre
bot
air</w>
elt</w>
foo
thinks</w>
figure</w>
Fa
uts</w>
ALL</w>
celebr
AW
US</w>
ined</w>
onas</w>
team</w>
Pr
hum
drinking</w>
ishes</w>
mee</w>
bli
ort
message</w>
Eng
zza</w>
lazy</w>
vacation</w>
mon</w>
xD</w>
board</w>
cri
appreci
warm</w>
SE</w>
bat
answer</w>
disappoin
prof
books</w>
fo</w>
followfriday</w>
ap</w>
different</w>
20
mo</w>
vel</w>
bday</w>
holiday</w>
Lon
ment
slept</w>
imp
myspace</w>
ren</w>
Hmm</w>
See</w>
SH
learn</w>
adio</w>
beg
Also</w>
Hu
emp
tom</w>
too
expe
ition</w>
stomach</w>
fb</w>
support</w>
fans</w>
mins</w>
Com
inside</w>
lady</w>
spon
turned</w>
looked</w>
temp
SA
cken</w>
met</w>
rely</w>
black</w>
gor
con</w>
ka</w>
voice</w>
2nd</w>
glas
lets</w>
UP</w>
cannot</w>
meant</w>
pee
Mc
Man</w>
Q</w>
join</w>
Ð1⁄
Home</w>
List
park</w>
Om
beer</w>
whats</w>
Ah</w>
dge</w>
boyfriend</w>
front</w>
Per
Poor</w>
surpr
2day</w>
card</w>
Star
fix</w>
yle</w>
tm
wed</w>
wit</w>
cus
Gonna</w>
doc
FF</w>
Wo
photos</w>
yo</w>
havent</w>
chin</w>
hosp
kie</w>
liked</w>
Fi
ab</w>
beat</w>
40</w>
episode</w>
camera</w>
Int
ONE</w>
tel</w>
Got
lar</w>
solutely</w>
iling</w>
number</w>
forever</w>
ground</w>
plac
cc
IM</w>
sus
cle</w>
geous</w>
wards</w>
ines</w>
games</w>
pup
photo</w>
fit</w>
end
ign</w>
ties</w>
Ste
Feeling</w>
Birth
vote</w>
The
50</w>
sis</w>
safe</w>
eye</w>
Or</w>
eh</w>
shall</w>
small</w>
ga</w>
shoes</w>
wondering</w>
spo
ors</w>
utting</w>
Ð°
desig
yourself</w>
bike</w>
spent</w>
sex
tt</w>
tummy</w>
crying</w>
awards</w>
ghts</w>
hy
ger
nesday</w>
dam</w>
hah</w>
London</w>
fever</w>
addic
sul
burn</w>
airport</w>
laugh</w>
Bro
vy</w>
ame</w>
needed</w>
Ne
tain
Birthday</w>
HAHA
Z</w>
ents</w>
Ðμ
ach</w>
ath
thy</w>
worked</w>
sit</w>
starts</w>
lies</w>
kid</w>
iss</w>
les
felt</w>
kies</w>
Looks</w>
keeps</w>
WI
hanging</w>
order</w>
Pre
earch</w>
pod</w>
Pe
curre
Am</w>
Awesome</w>
possible</w>
proud</w>
WH
decided</w>
dies</w>
rainy</w>
ST</w>
alling</w>
actly</w>
annoying</w>
sty</w>
phi
iphone</w>
Come</w>
officially</w>
memor
Af
ford</w>
ster
tic</w>
fru
heal
danc
AG
fact</w>
ced</w>
Gotta</w>
enti
DA
wishing</w>
aint</w>
played</w>
thes</w>
j</w>
Twitter
mc
road</w>
Ñ</w>
sug
huge</w>
ry
Fran
kill</w>
garden</w>
daugh
bucks</w>
ught</w>
lonely</w>
bt</w>
hospital</w>
tom
Having</w>
Working</w>
ative</w>
cess</w>
she
feet</w>
power</w>
MOTI
buil
ya
EMO
pass</w>
UN
project</w>
sta
yummy</w>
near</w>
Hou
mming</w>
<E
UK</w>
green</w>
lose</w>
packing</w>
sign</w>
tastic</w>
SU
gging</w>
hahah</w>
TICON
deser
ord
unfortunately</w>
isnt</w>
With</w>
taken</w>
Has</w>
realized</w>
woo</w>
white</w>
espe
ican</w>
nights</w>
ughter</w>
TE</w>
va</w>
Dis
OK</w>
del
minute</w>
uni
Tom
t-
Did
hind</w>
ummer</w>
UG
big
pizza</w>
living</w>
Once</w>
ï¿1⁄2</w>
tra</w>
exciting</w>
hau
vie
<3
itar</w>
share</w>
Boo</w>
You
Been</w>
Sup
hats</w>
ece</w>
tever</w>
Mic
babe</w>
table</w>
Enjoy</w>
Hopefully</w>
save</w>
beh
happens</w>
Miss</w>
shoot</w>
Man
knows</w>
pers
clothes</w>
stan
Sounds</w>
pecially</w>
MOTICON
<EMOTI
bra
bre
sigh
GHT</w>
bro</w>
question</w>
kers</w>
chicken</w>
Ton
val</w>
drunk</w>
finals</w>
col
version</w>
respon
DM</w>
pa</w>
thin</w>
along</w>
Har
graduation</w>
poin
rew</w>
remin
fol
rist
ada</w>
jum
sold</w>
xoxo</w>
behind</w>
â
Ind
apparently</w>
except</w>
especially</w>
GOO
plane</w>
Inter
Listening</w>
idk</w>
Â</w>
door</w>
dio</w>
lame</w>
Sta
english</w>
Of</w>
company</w>
dun
Life</w>
Welcome</w>
cast</w>
app</w>
giving</w>
gorgeous</w>
net
As</w>
First</w>
by
Ð3⁄4
san
tan
screen</w>
sign
sli
sel
vs</w>
ven
Du
burnt</w>
luv</w>
Omg</w>
ots</w>
ahead</w>
ane</w>
service</w>
Okay</w>
pes</w>
PP
plus</w>
Stu
TW
ava
cious</w>
scary</w>
shame</w>
videos</w>
gover</w>
killing</w>
loading</w>
hubby</w>
imag
morn
Fac
yours</w>
LLY</w>
May</w>
<EMOTICON
hold</w>
absolutely</w>
posted</w>
About</w>
ffic</w>
star</w>
tweet
istory</w>
upload</w>
Cra
gotten</w>
cover</w>
dow</w>
wer
DI
stri
ween</w>
bar</w>
ller</w>
wife</w>
tee
film</w>
radio</w>
For
business</w>
ris
round</w>
tors</w>
bed
congrats</w>
passed</w>
exactly</w>
09</w>
terrible</w>
owed</w>
kic
wishes</w>
download</w>
experi
mas</w>
Ja
hard
lately</w>
hun</w>
asked</w>
mmed</w>
GO</w>
Gir
Congrats</w>
Amer
Like</w>
Waiting</w>
bloo
bag</w>
comme
ently</w>
posit
trou
â¥
vin
Nothing</w>
moti
sol
touch</w>
à</w>
MTV</w>
fish</w>
cup</w>
daughter</w>
$</w>
Soo</w>
his
form</w>
ian</w>
CK</w>
ouble</w>
best
hates</w>
fres
fer</w>
practi
alright</w>
hoo
huh</w>
Wan
igh</w>
yep</w>
cy
alot</w>
sof
hug</w>
interview</w>
storm</w>
coz</w>
ngrat
Aust
ext</w>
loody</w>
Ac
ET</w>
arious</w>
sad
CH
dele
grr</w>
2mor
fla
fire</w>
shot</w>
Sho
smo
umm</w>
cakes</w>
wearing</w>
sat</w>
comment</w>
ipod</w>
miles</w>
simp
sta</w>
between</w>
dum
Mr</w>
club</w>
thx</w>
Lea
TH</w>
camp</w>
gettin</w>
Ca
Fre
free
guitar</w>
llen</w>
mic
nia</w>
deal</w>
gas</w>
usually</w>
relaxing</w>
wom
Check</w>
dres
changed</w>
ressed</w>
gies</w>
ouch</w>
TO
moon</w>
David</w>
blue</w>
use
THAT</w>
enjoyed</w>
web</w>
hil
single</w>
ville</w>
everybody</w>
others</w>
<</w>
dows</w>
profile</w>
nel</w>
revision</w>
singing</w>
Be</w>
Everyone</w>
logy</w>
insp
ast
Su
camp
hn</w>
hausted</w>
moved</w>
tin
Aw</w>
Nor
completely</w>
jus</w>
nose</w>
spi
recomme
walking</w>
iti
OH</w>
yr</w>
ate
new
now
tan</w>
Ñ
awful</w>
cher</w>
eld</w>
ski
thank
